62cb
2c81
19cd
d0f0
26f2
41dd
1e19
de0a
341c
641b
1436
ee5a
1b00
0d86
ea14
770f
f3a1
d394
714f
4033
c000
4081
40c0
4103
0103
c180
e101
c304
d002
e003
3828
7f6e
981c
5882
5fe6
9b40
dd5a
c030
0020
6002
41a0
3d00
b7ff
5f2e
2e37
782f
ea02
a1a4
3405
bfa4
8c06
4fe2
d128
c0f6
a0d3
a3d7
c162
0015
f05a
5050
fd71
8c89
1e64
2322
01ce
e311
e815
5009
302d
4415
ce61
2e7a
1e64
2462
6946
c001
c016
5037
d00a
8bbf
b423
d2a3
bc5c
4c0f
023a
030f
8e00
8983
a613
8001
a03d
5113
5b6d
4981
0c7e
082b
0bf1
ecfe
01da
9006
8001
8101
aa00
cd7d
c0a7
4438
0f7e
47f8
4182
8007
a00e
5dfa
21be
cb73
5001
2003
0c42
47fa
ed69
3073
8001
a062
40c1
0103
6003
b81b
7eb7
83b2
51cd
36d9
4289
a371
871d
4d1d
9573
03d8
c3c6
4280
6541
0e00
11d6
e7b5
7831
7818
2a66
318b
0806
9043
8143
4503
de70
9ef3
aee3
2441
80c1
8003
8009
a034
a8f9
781d
